<blk> 0
<sos/eos> 1
<unk> 2
. 3
▁ 4
? 5
▁그 6
▁거 7
이 8
▁아 9
도 10
는 11
▁근데 12
을 13
▁안 14
가 15
에 16
▁어 17
▁뭐 18
지 19
고 20
은 21
▁막 22
▁한 23
를 24
▁나 25
▁그냥 26
▁내가 27
▁그런 28
▁다 29
▁진짜 30
▁그래서 31
▁이제 32
▁이 33
▁일 34
어 35
▁게 36
만 37
다 38
로 39
서 40
▁거야 41
▁좀 42
▁그거 43
▁때 44
▁나는 45
▁수 46
에서 47
야 48
대 49
▁너무 50
▁잘 51
▁아니 52
▁많이 53
▁사 54
나 55
▁또 56
기 57
▁같애 58
▁약간 59
▁우리 60
한 61
▁못 62
면 63
▁내 64
잖아 65
▁해 66
▁하고 67
해 68
의 69
▁되게 70
▁이런 71
▁응 72
라 73
▁너 74
▁가 75
리 76
요 77
는데 78
하고 79
▁있는 80
▁더 81
▁그렇게 82
▁그게 83
▁하는 84
▁이렇게 85
으로 86
▁할 87
게 88
▁지금 89
▁오 90
▁난 91
인 92
▁그때 93
▁있어 94
▁그래 95
▁쫌 96
▁나도 97
▁왜 98
시 99
▁같은 100
자 101
▁음 102
▁거기 103
▁번 104
▁주 105
▁원 106
▁말 107
▁하 108
데 109
▁시 110
구 111
▁그니까 112
니까 113
할 114
▁돼 115
스 116
네 117
▁그리고 118
▁데 119
랑 120
사 121
▁아니야 122
하는 123
거든 124
▁맞아 125
진 126
▁두 127
▁엄청 128
▁그럼 129
▁지 130
다고 131
▁건 132
▁삼 133
라고 134
▁보 135
아 136
가지고 137
들 138
▁같이 139
주 140
▁십 141
▁없어 142
하 143
▁개 144
긴 145
▁계속 146
▁세 147
수 148
장 149
▁년 150
▁뭔가 151
까지 152
▁어떻게 153
▁것도 154
▁전 155
▁대 156
▁살 157
▁갈 158
▁걸 159
▁그러면 160
단 161
트 162
▁거지 163
▁딱 164
▁있잖아 165
▁있고 166
려 167
▁가서 168
▁구 169
▁이게 170
▁마 171
▁그래도 172
▁사람 173
이랑 174
과 175
▁원래 176
▁얘기 177
니 178
면은 179
던 180
▁하나 181
정 182
▁몇 183
▁정도 184
드 185
치 186
일 187
들이 188
▁보고 189
▁봐 190
▁야 191
▁자 192
▁해야 193
래 194
▁먹고 195
▁시간 196
▁생각 197
▁명 198
까 199
이야 200
▁되는 201
▁월 202
▁분 203
부 204
▁있는데 205
▁돈 206
▁차 207
▁해서 208
▁이거 209
▁반 210
▁아이 211
상 212
▁날 213
▁사람이 214
▁했는데 215
▁부 216
▁고 217
▁바 218
▁집 219
▁거의 220
▁걔 221
▁그치 222
▁비 223
▁같은데 224
러 225
▁공 226
▁일단 227
▁무슨 228
원 229
인데 230
▁다른 231
▁열 232
비 233
▁하면 234
해서 235
더라고 236
▁달 237
▁별로 238
보 239
부터 240
▁자기 241
냐 242
동 243
▁줄 244
▁와 245
▁인 246
▁어떤 247
식 248
전 249
한테 250
▁학교 251
▁간 252
▁될 253
▁인제 254
▁그건 255
우 256
▁오늘 257
▁사실 258
▁너가 259
▁솔직히 260
▁했어 261
▁맨날 262
▁것 263
▁어디 264
▁정 265
으면 266
▁저 267
▁보니까 268
▁좋은 269
▁거기서 270
▁신 271
신 272
▁않아 273
▁네 274
▁이십 275
하게 276
거 277
▁친구 278
▁좋아 279
▁가는 280
▁알 281
▁하는데 282
성 283
다가 284
▁본 285
워 286
▁그걸 287
▁우리가 288
▁팔 289
▁조 290
▁때문에 291
▁가고 292
▁아니라 293
▁하지 294
▁말이야 295
▁몰라 296
▁있지 297
▁유 298
▁다시 299
▁소 300
가지구 301
▁제 302
▁영화 303
화 304
제 305
▁수도 306
▁중 307
▁그래가지고 308
▁기 309
▁애 310
▁어제 311
▁요즘 312
르 313
▁애들 314
면서 315
으니까 316
▁적 317
▁알바 318
▁이번에 319
질 320
마 321
▁만 322
▁연 323
이나 324
인가 325
▁아니면 326
▁있을 327
▁배 328
▁없는 329
▁여기 330
▁제일 331
▁예 332
▁정말 333
▁입 334
▁남 335
▁완전 336
▁스 337
▁무 338
▁여 339
▁되는데 340
▁볼 341
▁알아 342
산 343
구나 344
▁타 345
▁싶어 346
▁그러 347
▁걔가 348
▁갑자기 349
▁아직 350
▁들어 351
▁전에 352
▁보면 353
▁건데 354
선 355
▁거는 356
더라 357
실 358
▁사람들이 359
▁되지 360
▁갔다 361
▁까 362
▁가지고 363
적으로 364
걸 365
든 366
겠지 367
▁너는 368
▁있다 369
▁그럴 370
▁바로 371
문 372
보다 373
와 374
▁술 375
했어 376
▁형 377
▁아예 378
오 379
▁일본 380
▁그것도 381
▁미 382
운 383
▁되고 384
하지 385
▁그거는 386
▁아마 387
▁백 388
▁말고 389
▁육 390
▁이케 391
당 392
여 393
▁모르겠어 394
소 395
▁모 396
▁생각을 397
▁방 398
▁사람들 399
▁니가 400
▁언제 401
두 402
▁한번 403
▁때는 404
방 405
▁집에 406
▁학년 407
▁그러면은 408
▁공부 409
져 410
▁혼자 411
적인 412
처럼 413
▁엄마 414
▁상 415
▁먹 416
음 417
라는 418
▁가면 419
▁한데 420
▁없 421
▁밥 422
▁봤어 423
▁동 424
▁아니고 425
겠다 426
▁쓰 427
엔 428
려고 429
으 430
내 431
▁먹어 432
▁게임 433
▁하니까 434
밖에 435
▁여행 436
용 437
▁얼마 438
관 439
▁물 440
던데 441
▁금 442
▁뭐지 443
준 444
▁니 445
▁애들이 446
미 447
하면 448
▁왜냐면 449
▁않 450
히 451
▁놀 452
들은 453
▁서 454
▁나중에 455
▁생각해 456
▁먹을 457
거나 458
▁장 459
▁성 460
금 461
▁맞어 462
했다 463
▁그러니까 464
▁치 465
▁나한테 466
학 467
린 468
▁않을까 469
▁되 470
었어 471
▁그러고 472
▁그서 473
▁생각이 474
▁화 475
▁과 476
▁빨리 477
역 478
무 479
생 480
계 481
세 482
명 483
▁피 484
▁칠 485
▁그거를 486
▁언니 487
▁삼십 488
▁큰 489
▁온 490
매 491
▁노 492
▁싶은 493
▁파 494
▁불 495
차 496
▁들 497
▁점 498
이라고 499
▁외 500
▁있 501
▁사진 502
호 503
회 504
▁뭐야 505
▁많아 506
물 507
▁여자 508
▁처음 509
집 510
▁만약에 511
▁박 512
타 513
▁해도 514
▁하면은 515
▁싫어 516
▁싸 517
▁뭘 518
▁그렇지 519
▁한국 520
▁어차피 521
▁통 522
▁먹는 523
▁힘들 524
▁운동 525
▁우 526
색 527
란 528
▁강 529
▁진 530
▁문제 531
▁다음 532
국 533
티 534
프 535
▁발 536
루 537
▁시험 538
▁해가지고 539
그 540
야지 541
버 542
조 543
▁따 544
▁됐 545
위 546
▁느낌 547
▁보면은 548
다는 549
▁아냐 550
▁양 551
적 552
▁서울 553
양 554
간 555
업 556
분 557
▁된 558
직 559
▁얘기를 560
▁남자 561
▁군대 562
▁이상 563
연 564
했 565
▁들어가 566
안 567
모 568
▁자기가 569
행 570
죠 571
▁있으니까 572
▁써 573
▁만나 574
레 575
체 576
▁있으면 577
▁단 578
바 579
▁재 580
석 581
▁요 582
▁엄마가 583
하기 584
▁그까 585
▁없고 586
▁등 587
개 588
▁거잖아 589
▁의 590
▁하면서 591
▁보는 592
▁참 593
▁재밌 594
공 595
▁걔는 596
울 597
▁선 598
▁가지 599
터 600
날 601
▁이번 602
▁실 603
▁항상 604
▁천 605
▁학원 606
▁매 607
▁손 608
▁교 609
▁감 610
해야 611
▁나랑 612
유 613
▁길 614
▁알고 615
중 616
디 617
▁가야 618
▁회 619
심 620
▁맛있 621
▁기억 622
▁나왔 623
▁영 624
▁시간이 625
▁누구 626
▁중에 627
▁옷 628
▁타고 629
▁집에서 630
▁어쨌든 631
권 632
▁영어 633
▁오빠 634
지는 635
▁보통 636
▁책 637
▁초 638
▁오래 639
▁열심히 640
였어 641
▁봤는데 642
▁따른 643
▁다섯 644
기도 645
겨 646
▁되잖아 647
지만 648
점 649
▁당 650
▁산 651
▁같 652
▁왔 653
▁머리 654
▁걸로 655
▁비싸 656
▁동안 657
▁많은 658
었는데 659
▁아빠 660
▁대학 661
▁말을 662
▁올 663
▁식으로 664
▁돈이 665
▁위 666
릴 667
▁쪼끔 668
▁후 669
▁크 670
반 671
임 672
감 673
케 674
영 675
였 676
▁이천 677
▁아까 678
크 679
기가 680
에는 681
▁연락 682
경 683
▁편 684
된 685
▁나서 686
▁되니까 687
파 688
재 689
▁우리는 690
▁우리나라 691
복 692
▁뭐라 693
▁경 694
▁코 695
▁있거든 696
▁싶다 697
급 698
▁보내 699
▁말이 700
▁준비 701
▁되나 702
▁내일 703
▁어느 704
▁노래 705
피 706
▁너네 707
입 708
▁쪽 709
▁대해서 710
형 711
▁끝나고 712
씩 713
난 714
▁없지 715
▁회사 716
▁맞는 717
▁둘 718
▁때도 719
이고 720
봐 721
이니까 722
▁조금 723
었 724
▁아닌 725
냐고 726
길 727
▁수업 728
▁했잖아 729
력 730
▁싶 731
▁문 732
▁그런데 733
▁학기 734
▁같아 735
민 736
이잖아 737
▁순 738
▁먼저 739
▁걔네 740
▁추 741
▁넌 742
▁핸드폰 743
포 744
▁드 745
▁눈 746
▁오십 747
▁없잖아 748
▁잠 749
이지 750
강 751
▁갔 752
▁나온 753
▁전화 754
▁고등학교 755
▁와서 756
▁나와 757
▁있었어 758
▁근 759
▁돈을 760
▁너도 761
▁누가 762
▁학 763
▁중국 764
▁하잖아 765
속 766
발 767
른 768
▁글 769
▁잡 770
▁짜 771
▁처음에 772
▁했지 773
▁일이 774
▁생 775
▁다음에 776
▁괜찮 777
▁저번에 778
▁키 779
▁확 780
했던 781
▁벌 782
갈 783
▁된다 784
▁김 785
▁요새 786
▁종 787
▁굳이 788
▁있었는데 789
리는 790
절 791
하면서 792
▁봤 793
카 794
있 795
▁지금은 796
▁얼마나 797
▁갔는데 798
이라 799
▁옛날에 800
▁포 801
▁이러고 802
▁속 803
▁먹었 804
출 805
▁꼭 806
이다 807
▁죽 808
▁사고 809
▁이미 810
▁따로 811
▁거고 812
▁찾아 813
▁얼굴 814
▁수가 815
▁있었 816
▁갖고 817
▁나가 818
▁거를 819
졌 820
▁기억이 821
▁쓸 822
▁다르 823
스트 824
▁준 825
▁이러면서 826
▁봤을 827
작 828
▁고민 829
지고 830
▁으 831
▁나오는 832
▁싶은데 833
군 834
▁대한 835
이면 836
▁확실히 837
되 838
▁약 839
▁받아 840
드라고 841
▁그랬어 842
▁느낌이 843
▁물론 844
▁하루 845
드라 846
▁버 847
▁여섯 848
▁있어서 849
▁시작 850
▁아닌데 851
박 852
▁식 853
셔 854
▁달라 855
▁하더라고 856
▁넘 857
▁나오 858
▁붙 859
▁여러 860
▁커 861
달 862
▁했던 863
▁호 864
▁이러 865
며 866
▁쪼금 867
교 868
▁애가 869
▁갔어 870
하다 871
▁특 872
통 873
▁다니 874
▁만들어 875
▁좋아하는 876
▁친 877
▁결혼 878
▁같고 879
▁했다 880
각 881
▁되면 882
▁모르겠는데 883
겠네 884
▁저기 885
▁토 886
▁사는 887
셨 888
▁아니면은 889
▁복 890
▁친구가 891
▁드라마 892
▁심 893
본 894
▁음식 895
▁목 896
▁없는데 897
▁이름 898
▁시에 899
했는데 900
한다 901
▁알지 902
▁별 903
▁혹시 904
리고 905
님 906
▁있다고 907
료 908
▁일을 909
기는 910
대로 911
▁소리 912
▁현 913
▁가면은 914
▁없다 915
▁쓰는 916
▁오히려 917
브 918
▁개월 919
판 920
▁딱히 921
▁무조건 922
지도 923
니깐 924
건 925
▁받 926
▁민 927
▁친구들 928
▁요즘에 929
▁뭔 930
▁힘들어 931
씨 932
플 933
▁쓰고 934
▁졸업 935
▁홍대 936
▁하기 937
습니다 938
청 939
▁사십 940
갖고 941
▁건가 942
론 943
즈 944
▁좋아해 945
기로 946
▁카페 947
▁최 948
▁아빠가 949
▁투 950
▁지원 951
보고 952
말 953
▁풀 954
하니까 955
▁사람은 956
▁가자 957
혀 958
▁앞에 959
▁아무 960
겠어 961
▁설 962
▁들고 963
▁그랬는데 964
▁아침에 965
에서는 966
더 967
았 968
▁대학교 969
▁차라리 970
▁그쪽 971
▁한다 972
마다 973
▁잘못 974
쳐 975
머 976
▁짐 977
▁않았어 978
보다는 979
▁새 980
종 981
▁근까 982
▁곳 983
▁당연히 984
▁서로 985
▁나이 986
▁둘이 987
▁먹으면 988
렸 989
▁떠 990
었던 991
어서 992
▁깨 993
저 994
▁알았어 995
▁했 996
▁해야지 997
투 998
었거든 999
▁달에 1000
쪽 1001
▁미국 1002
▁하다가 1003
▁뭐가 1004
▁하긴 1005
▁갔을 1006
줄 1007
▁좋지 1008
▁주고 1009
▁뽑 1010
▁망 1011
▁꺼 1012
▁아닌가 1013
쯤 1014
▁선생님 1015
▁몸 1016
▁텐데 1017
겠 1018
▁번도 1019
병 1020
▁취업 1021
▁경우 1022
▁메 1023
해가지고 1024
▁제가 1025
▁거기에 1026
▁동생 1027
▁않고 1028
▁찾 1029
▁거니까 1030
키 1031
▁보이 1032
락 1033
▁욕 1034
▁땐 1035
▁괜찮아 1036
▁생활 1037
품 1038
▁보여 1039
▁생각보다 1040
망 1041
▁밖에 1042
▁자꾸 1043
▁딸 1044
▁들었 1045
▁부산 1046
▁계 1047
▁자주 1048
들을 1049
▁오는 1050
▁않았 1051
천 1052
▁아니지 1053
에도 1054
▁없이 1055
▁국 1056
▁태 1057
▁사람들은 1058
▁허 1059
약 1060
▁그렇고 1061
▁병원 1062
▁급 1063
라도 1064
▁마음 1065
▁옛날 1066
증 1067
장이 1068
▁해주 1069
▁예전에 1070
▁필요 1071
격 1072
▁평 1073
▁하지만 1074
▁받고 1075
▁버스 1076
이가 1077
먹 1078
▁적이 1079
▁된다고 1080
코 1081
▁명이 1082
▁카 1083
▁따라 1084
▁올해 1085
▁아무래도 1086
근 1087
▁자리 1088
학과 1089
▁걍 1090
량 1091
▁있나 1092
토 1093
▁가장 1094
▁딴 1095
▁병 1096
▁없으니까 1097
▁끝나 1098
▁언니가 1099
▁얘 1100
▁관 1101
▁받았 1102
▁부분 1103
▁했었 1104
▁취 1105
▁일단은 1106
▁여덟 1107
▁입고 1108
▁일곱 1109
▁영상 1110
▁한다고 1111
▁없어서 1112
▁누나 1113
▁뒤 1114
었잖아 1115
▁않나 1116
년 1117
▁최근에 1118
▁면접 1119
▁뭐냐 1120
▁듣고 1121
▁주는 1122
으면은 1123
▁하다 1124
▁많고 1125
하잖아 1126
살 1127
▁가족 1128
더니 1129
▁굉장히 1130
▁팀 1131
▁리 1132
▁절대 1133
▁잠깐 1134
▁아무것도 1135
언 1136
▁옆에 1137
등 1138
었다 1139
▁입장 1140
▁말하는 1141
▁스물 1142
창 1143
▁왔어 1144
▁그다음에 1145
▁맨 1146
▁같다 1147
▁자체가 1148
림 1149
들도 1150
▁아는 1151
▁받는 1152
편 1153
블 1154
▁용 1155
노 1156
▁훨씬 1157
▁계획 1158
▁없었 1159
▁만났 1160
▁재수 1161
▁늘 1162
글 1163
▁베 1164
하는데 1165
▁거기는 1166
▁좋아하 1167
▁크게 1168
너 1169
페 1170
▁저는 1171
▁총 1172
▁됐어 1173
▁살아 1174
놨 1175
▁재밌어 1176
▁울 1177
▁사이 1178
적이 1179
번 1180
▁너랑 1181
▁가게 1182
주고 1183
설 1184
볼 1185
▁그날 1186
▁아무튼 1187
남 1188
▁탈 1189
▁디 1190
라면 1191
▁돌 1192
▁좋을 1193
▁모르겠다 1194
성이 1195
▁끝 1196
익 1197
▁배우 1198
▁안에 1199
▁중학교 1200
규 1201
▁보러 1202
▁작 1203
법 1204
▁하자 1205
현 1206
이었어 1207
▁귀 1208
▁그래가지구 1209
▁없을 1210
▁데가 1211
▁논 1212
▁살짝 1213
▁씨 1214
추 1215
▁변 1216
온 1217
▁괜찮은 1218
▁아침 1219
▁사람도 1220
인지 1221
갔 1222
▁잔 1223
곤 1224
돼 1225
▁자신 1226
▁어쩔 1227
▁동네 1228
였는데 1229
▁먹었어 1230
▁축구 1231
▁누 1232
▁같긴 1233
럽 1234
▁거기가 1235
▁걔도 1236
▁창 1237
▁그것 1238
▁청 1239
▁앞 1240
▁제주도 1241
▁가기 1242
▁신청 1243
▁법 1244
▁모든 1245
줘 1246
▁사회 1247
했지 1248
▁느 1249
되는 1250
▁여기서 1251
▁지나 1252
리가 1253
▁늦게 1254
▁학점 1255
범 1256
합 1257
션 1258
▁가끔 1259
▁이상한 1260
▁상태 1261
▁뒤에 1262
▁넣 1263
▁쪽으로 1264
▁일어나 1265
환 1266
왔 1267
▁음악 1268
▁간다 1269
태 1270
▁있긴 1271
▁공부를 1272
▁얘가 1273
라서 1274
▁애들은 1275
지가 1276
▁만들 1277
탕 1278
▁마지막 1279
▁했거든 1280
▁있어야 1281
▁담 1282
주는 1283
배 1284
항 1285
▁그런가 1286
▁돌아 1287
▁쉬 1288
▁물어보 1289
▁봐야 1290
▁일반 1291
▁그때는 1292
▁줘 1293
목 1294
▁맛 1295
류 1296
▁예를 1297
▁놀러 1298
▁레 1299
▁다닐 1300
▁내려 1301
▁결국 1302
예 1303
▁왔다 1304
▁저녁 1305
▁걱정 1306
▁프로 1307
▁체 1308
튼 1309
기를 1310
▁힘든 1311
▁걸어 1312
▁진짜로 1313
▁이해 1314
▁출 1315
하면은 1316
▁맛있는 1317
애 1318
이라는 1319
▁할머니 1320
후 1321
▁전공 1322
났 1323
▁끼 1324
▁나라 1325
▁보면서 1326
▁하나도 1327
▁지난 1328
▁상관없 1329
▁퍼센트 1330
▁때부터 1331
▁카톡 1332
함 1333
▁보기 1334
▁어디서 1335
▁말해 1336
▁뜨 1337
▁아직도 1338
▁신경 1339
께 1340
▁접 1341
▁않은 1342
퇴 1343
▁그분 1344
▁걸리 1345
▁나올 1346
▁경찰 1347
▁방학 1348
▁알았 1349
▁얘기해 1350
▁터 1351
▁제대로 1352
▁수능 1353
▁아프 1354
▁어렵 1355
▁승 1356
▁나오고 1357
▁티 1358
▁들어오 1359
▁시켜 1360
▁유튜브 1361
름 1362
에게 1363
백 1364
▁했을 1365
표 1366
거리 1367
▁임 1368
▁갔다가 1369
▁쓴 1370
에다가 1371
축 1372
견 1373
▁이걸 1374
까진 1375
었지 1376
▁밀 1377
한다고 1378
립 1379
초 1380
▁좋겠다 1381
▁육십 1382
▁그걸로 1383
▁얘길 1384
▁다들 1385
▁돼서 1386
받 1387
▁운전 1388
값 1389
▁알려 1390
▁다니는 1391
곡 1392
▁생각하 1393
▁빼고 1394
▁생기 1395
▁없었어 1396
담 1397
갑 1398
▁강아지 1399
줬 1400
▁올라가 1401
원이 1402
했을 1403
▁하게 1404
▁맞다 1405
득 1406
▁아홉 1407
▁문제가 1408
▁넘어 1409
▁형이 1410
불 1411
▁내용 1412
만한 1413
팅 1414
▁채 1415
▁아니잖아 1416
▁너한테 1417
▁골 1418
▁겨울 1419
▁힘 1420
▁수영 1421
▁건지 1422
▁짜증 1423
퍼 1424
▁다니고 1425
▁똑같은 1426
▁찍어 1427
▁합 1428
▁거라고 1429
▁들어서 1430
외 1431
▁건강 1432
인이 1433
액 1434
▁층 1435
▁연습 1436
▁뭐라고 1437
▁컴퓨터 1438
▁억 1439
런 1440
▁충 1441
▁이야기 1442
에서도 1443
▁외국 1444
▁얘기하 1445
▁상황 1446
▁빨 1447
▁판 1448
▁마시 1449
▁자격증 1450
▁모르 1451
▁동아리 1452
▁들었어 1453
▁물어봤 1454
▁환 1455
▁케 1456
▁그러는 1457
승 1458
▁해보 1459
▁이건 1460
▁거랑 1461
녀 1462
▁웃 1463
▁때마다 1464
▁학교에서 1465
▁교회 1466
▁올리 1467
▁에이 1468
니다 1469
▁많았 1470
친 1471
▁많잖아 1472
▁느끼 1473
▁착 1474
▁것들 1475
▁쳐 1476
▁대통령 1477
▁언 1478
▁생각하고 1479
▁좋은데 1480
▁머 1481
▁이래 1482
▁교육 1483
▁가능 1484
▁정신 1485
▁몰 1486
졌어 1487
▁경기 1488
밥 1489
▁주변에 1490
▁증 1491
▁멀 1492
▁벌써 1493
이라서 1494
덕 1495
▁뭔지 1496
▁교수님 1497
▁월에 1498
▁가는데 1499
▁말야 1500
겼 1501
▁고기 1502
▁질 1503
▁위에 1504
▁긍까 1505
▁꿈 1506
▁점심 1507
▁특히 1508
▁오빠가 1509
▁팔십 1510
▁광 1511
▁군 1512
▁커피 1513
있는 1514
▁남았 1515
▁않냐 1516
▁정도로 1517
▁들어갔 1518
▁얼 1519
커 1520
했다고 1521
했잖아 1522
▁땜에 1523
째 1524
▁보다 1525
▁슬 1526
▁직접 1527
▁잡아 1528
낼 1529
▁듣 1530
▁부모님 1531
▁인터넷 1532
▁오고 1533
줘야 1534
▁다녀 1535
젠 1536
▁봐도 1537
지를 1538
▁할려고 1539
▁데서 1540
▁났 1541
됐 1542
▁수학 1543
떨 1544
▁번째 1545
▁그러면서 1546
랐 1547
▁가져 1548
▁왜냐면은 1549
▁놓고 1550
▁빵 1551
▁자체 1552
▁장난 1553
여서 1554
▁틀 1555
▁자고 1556
▁친해 1557
▁모르는 1558
▁싶지 1559
▁방송 1560
▁테 1561
▁지하철 1562
▁비행기 1563
▁좋았 1564
▁있다가 1565
한데 1566
▁기간 1567
▁설명 1568
▁챙겨 1569
▁나쁘지 1570
▁나름 1571
려면 1572
올 1573
빈 1574
▁되면은 1575
▁맛이 1576
▁마음이 1577
▁맛있어 1578
▁관심 1579
▁칠십 1580
▁키우 1581
▁그러지 1582
▁중요한 1583
길래 1584
▁어머니 1585
능 1586
▁좋다 1587
▁성적 1588
▁밑에 1589
▁오만 1590
십 1591
▁초등학교 1592
메 1593
▁올라 1594
▁철 1595
▁무서워 1596
하러 1597
▁카드 1598
▁함 1599
▁강남 1600
▁치킨 1601
던가 1602
▁있대 1603
▁이러는 1604
▁답 1605
▁그렇구나 1606
▁앞으로 1607
▁담배 1608
독 1609
▁전문 1610
▁같기도 1611
▁꼬 1612
▁좋겠어 1613
▁갔었 1614
습 1615
합니다 1616
▁이유 1617
책 1618
악 1619
▁분위기 1620
▁선택 1621
딩 1622
월 1623
▁악 1624
찌 1625
▁것이 1626
▁어렸을 1627
▁표 1628
테 1629
▁똑같 1630
▁고양이 1631
▁가격 1632
▁시키 1633
율 1634
▁될지 1635
▁지역 1636
▁대표 1637
▁생각하는 1638
꼬 1639
▁생일 1640
▁비싼 1641
평 1642
▁토요일 1643
▁하거든 1644
징 1645
▁나갔 1646
▁없다고 1647
▁관리 1648
▁냄새 1649
▁선생님이 1650
시는 1651
▁필 1652
정이 1653
잖아요 1654
▁같애요 1655
▁많지 1656
술 1657
▁일주일 1658
▁며칠 1659
▁나와서 1660
▁하더라 1661
▁받을 1662
▁극 1663
▁대부분 1664
때 1665
▁비슷한 1666
▁것으로 1667
▁있더라고 1668
▁미리 1669
▁돌아가 1670
▁밤 1671
켜 1672
쿠 1673
▁쌤 1674
▁부르 1675
▁때가 1676
▁주제 1677
▁먹어야 1678
끼 1679
▁않을 1680
믄 1681
▁휴학 1682
▁듣는 1683
점이 1684
▁새로 1685
▁그래야 1686
달라고 1687
다니까 1688
▁대화 1689
▁대해 1690
▁혼 1691
▁금요일 1692
▁생각은 1693
▁빠지 1694
▁어때 1695
탁 1696
▁사랑 1697
자가 1698
▁그랬더니 1699
▁독 1700
▁절 1701
막 1702
▁검 1703
였나 1704
▁그랬잖아 1705
▁떨어지 1706
▁유럽 1707
활 1708
▁가야지 1709
졌다 1710
▁왔는데 1711
▁하루에 1712
▁사람을 1713
이라도 1714
센 1715
만큼 1716
레이 1717
▁보지 1718
▁내려가 1719
움 1720
▁우린 1721
▁경험 1722
▁끝났 1723
▁노력 1724
▁생긴 1725
▁빠 1726
▁아저씨 1727
야겠다 1728
▁오천 1729
▁작년에 1730
▁편의점 1731
▁전혀 1732
볼까 1733
▁호텔 1734
▁이거는 1735
▁재밌는 1736
▁올려 1737
S 1738
▁토익 1739
▁색깔 1740
아서 1741
▁해보고 1742
▁번씩 1743
▁아파 1744
▁술을 1745
겠지만 1746
세요 1747
▁암튼 1748
▁밤에 1749
▁아버지 1750
▁선물 1751
▁똑같이 1752
▁기본 1753
▁쪽에 1754
▁많은데 1755
▁그래갖고 1756
▁바꾸 1757
▁낫 1758
처 1759
▁오면 1760
▁말한 1761
▁맞지 1762
사를 1763
▁대충 1764
▁않는 1765
▁알아서 1766
필 1767
킹 1768
▁있으면은 1769
▁친구랑 1770
▁있겠지 1771
▁개인 1772
▁간다고 1773
▁있었던 1774
▁직 1775
▁학생 1776
▁왕 1777
▁좋고 1778
▁생겼 1779
짜 1780
▁역 1781
▁아님 1782
▁가도 1783
▁이사 1784
▁가가지고 1785
▁그랬었 1786
▁확인 1787
시간 1788
▁만날 1789
▁싶어서 1790
▁몰랐 1791
보니까 1792
▁작년 1793
▁깔 1794
▁빌 1795
▁이러니까 1796
▁중요하 1797
▁나왔어 1798
▁지내 1799
▁시까지 1800
▁아무리 1801
톡 1802
하다가 1803
▁오백 1804
▁헤 1805
▁직업 1806
▁각 1807
▁요리 1808
▁차이 1809
놔 1810
끼리 1811
▁있냐 1812
▁살고 1813
▁관련 1814
▁들어가서 1815
▁약속 1816
▁놀고 1817
▁거면 1818
▁세계 1819
▁아주 1820
자마자 1821
▁되겠다 1822
▁만든 1823
▁지금도 1824
▁와가지고 1825
▁했었는데 1826
▁결 1827
▁있어요 1828
▁애기 1829
▁구십 1830
▁위해서 1831
▁없으면 1832
혜 1833
▁인생 1834
수가 1835
촌 1836
▁할까 1837
▁결과 1838
▁걔랑 1839
싱 1840
▁먹은 1841
▁기숙사 1842
▁방법 1843
▁대신 1844
▁워낙 1845
▁암 1846
▁모아 1847
감이 1848
▁있습니다 1849
▁덜 1850
▁이름이 1851
려서 1852
▁걔네들 1853
낸 1854
▁하시 1855
례 1856
떡 1857
벌 1858
족 1859
▁이유가 1860
▁택시 1861
▁나이가 1862
▁폭 1863
▁나가서 1864
▁중에서 1865
별 1866
▁활동 1867
염 1868
▁낫지 1869
까지는 1870
▁클 1871
▁줬 1872
▁연애 1873
▁인사 1874
▁집이 1875
▁먹자 1876
▁그렇다고 1877
객 1878
▁공연 1879
거야 1880
▁말씀 1881
▁나오면 1882
▁피자 1883
았어 1884
▁인정 1885
잡 1886
▁주에 1887
▁된대 1888
▁재미없 1889
줬어 1890
르고 1891
어가지고 1892
▁미안 1893
▁괜히 1894
▁그렇긴 1895
북 1896
듯 1897
▁싼 1898
▁권 1899
랜 1900
▁심지어 1901
같이 1902
▁있다는 1903
▁주말 1904
▁유명한 1905
▁애들이랑 1906
깐 1907
▁꾸 1908
사가 1909
▁만드는 1910
▁본인 1911
▁만난 1912
냐면 1913
▁배워 1914
봐야 1915
▁점수 1916
T 1917
▁바꿔 1918
▁좋겠 1919
향 1920
▁빠져 1921
▁했었어 1922
▁그다음 1923
▁이랬는데 1924
▁드는 1925
▁것만 1926
▁중간에 1927
▁처음에는 1928
! 1929
송 1930
▁재밌게 1931
▁이백 1932
▁모습 1933
▁여름 1934
▁연기 1935
링 1936
▁쪼 1937
희 1938
▁말도 1939
▁엄마한테 1940
▁점점 1941
▁그대로 1942
▁탄 1943
▁우리도 1944
▁문화 1945
▁기억나 1946
▁사건 1947
쯤에 1948
▁해외 1949
▁있던 1950
▁먹으러 1951
▁향 1952
▁롤 1953
▁파는 1954
▁그랬지 1955
▁예쁘 1956
▁운동을 1957
▁의미 1958
▁살았 1959
봤 1960
▁애초에 1961
▁기사 1962
▁스트레스 1963
▁쩜 1964
률 1965
하거나 1966
겠다고 1967
봉 1968
▁넣어 1969
▁새로운 1970
이래 1971
▁기분 1972
▁아니다 1973
칠 1974
▁이만 1975
효 1976
▁어떡해 1977
였지 1978
▁넘어가 1979
▁금방 1980
▁나머지 1981
▁알바를 1982
▁생각도 1983
순 1984
▁넓 1985
▁봤지 1986
▁작은 1987
굴 1988
벽 1989
▁크리스마스 1990
▁친한 1991
▁해봤 1992
스터 1993
킨 1994
▁프 1995
▁싸우 1996
▁삼백 1997
되고 1998
▁분이 1999
▁먹지 2000
▁건물 2001
채 2002
▁보는데 2003
▁만나는 2004
이란 2005
▁일요일 2006
하자 2007
렌 2008
협 2009
▁시간에 2010
▁많다 2011
▁모르지 2012
▁너희 2013
보단 2014
▁이까 2015
▁멋있 2016
땡 2017
▁사야 2018
입니다 2019
돌 2020
▁애들도 2021
▁벌어 2022
▁보이는 2023
▁자세 2024
▁알았는데 2025
▁봐서 2026
▁스무 2027
츠 2028
▁데는 2029
▁사람들도 2030
▁해가지구 2031
빙 2032
비가 2033
▁이후 2034
M 2035
▁자기는 2036
▁삼성 2037
▁스타일 2038
거든요 2039
▁선배 2040
될 2041
셨어 2042
▁거예요 2043
슈 2044
▁패 2045
잉 2046
▁재미 2047
▁찾아보 2048
홀 2049
▁매일 2050
▁그림 2051
▁많아서 2052
▁저번 2053
▁휴 2054
밀 2055
▁그러다 2056
▁있으 2057
▁같애서 2058
▁이모 2059
▁완 2060
▁사용 2061
극 2062
▁순간 2063
▁엄 2064
▁있었거든 2065
▁상황이 2066
▁밥을 2067
▁괜찮을 2068
널 2069
람 2070
▁내년 2071
▁이쁘 2072
▁정해 2073
▁같지 2074
▁하겠지 2075
▁경제 2076
▁팬 2077
▁가보고 2078
▁국가 2079
▁졸 2080
▁직장 2081
킬 2082
▁귀찮 2083
▁경우는 2084
탄 2085
▁나갈 2086
련 2087
▁얘기하는 2088
▁쭉 2089
▁받은 2090
▁있어가지고 2091
▁시간을 2092
▁실제로 2093
결 2094
▁들어간 2095
▁엄마랑 2096
잔 2097
▁키로 2098
▁세상 2099
▁살이 2100
없 2101
▁봤거든 2102
▁눈이 2103
▁위해 2104
▁뛰어 2105
▁발표 2106
수록 2107
▁시장 2108
▁정도는 2109
▁주변 2110
▁막상 2111
▁중간 2112
▁어려운 2113
▁것처럼 2114
▁희 2115
꺼 2116
숙 2117
▁행복 2118
▁그랬던 2119
▁됐는데 2120
▁요즘은 2121
험 2122
▁머리가 2123
▁그나마 2124
▁아니니까 2125
▁역시 2126
▁들어갈 2127
▁물어봐 2128
▁공무원 2129
▁있게 2130
▁때까지 2131
▁얘기가 2132
▁어쩌 2133
▁높은 2134
▁처 2135
열 2136
▁빌려 2137
▁했고 2138
치고 2139
▁포기 2140
▁동물 2141
▁있을까 2142
▁주말에 2143
▁칼 2144
▁직원 2145
베 2146
검 2147
했거든 2148
▁오후 2149
▁아무도 2150
▁라면 2151
▁월요일 2152
▁사업 2153
▁정부 2154
▁만나고 2155
▁눈치 2156
▁잘해 2157
▁패딩 2158
▁도시 2159
▁가봤 2160
▁관심이 2161
들이랑 2162
▁까먹 2163
▁만나서 2164
▁삼만 2165
슨 2166
▁운 2167
▁편이 2168
▁새벽 2169
▁저녁에 2170
▁몸이 2171
▁인스타 2172
텐 2173
▁무섭 2174
뿐 2175
▁잡고 2176
▁숙 2177
▁전체 2178
이었는데 2179
휴 2180
몬 2181
▁목소리 2182
따 2183
▁당장 2184
▁가니까 2185
▁현실 2186
▁어린 2187
▁떨어졌 2188
장님 2189
▁싫은 2190
▁브 2191
▁기준 2192
▁기대 2193
이네 2194
▁쇼핑 2195
▁맞춰 2196
들한테 2197
▁그리구 2198
였다 2199
▁작업 2200
▁우선 2201
맘 2202
▁내고 2203
▁찍고 2204
▁예약 2205
▁해봐 2206
▁여자애 2207
끔 2208
▁결정 2209
▁닭 2210
▁근처에 2211
C 2212
▁기회 2213
에선 2214
▁버리 2215
▁불러 2216
▁붙어 2217
▁안돼 2218
흥 2219
기에는 2220
▁거기도 2221
▁하냐 2222
▁날씨 2223
▁그렇다 2224
콘 2225
도록 2226
▁짝 2227
옥 2228
존 2229
▁했나 2230
▁맥주 2231
닥 2232
▁대박 2233
▁아이폰 2234
냥 2235
좌 2236
▁동생이 2237
▁걸려 2238
누 2239
▁부족 2240
▁은데 2241
▁반대 2242
었고 2243
▁떡볶이 2244
▁거긴 2245
들의 2246
줄게 2247
▁지금까지 2248
▁지방 2249
B 2250
▁올라오 2251
력이 2252
▁홍 2253
▁종류 2254
▁많으니까 2255
더라도 2256
▁수술 2257
싸 2258
▁하겠다 2259
슬 2260
▁교수 2261
▁먹었는데 2262
▁황 2263
▁일하는 2264
▁화장실 2265
▁바다 2266
였던 2267
똑 2268
▁부담 2269
▁이래서 2270
▁아파트 2271
▁지짜 2272
▁내년에 2273
▁숨 2274
해야지 2275
춤 2276
▁적은 2277
▁티비 2278
▁정리 2279
하시는 2280
▁이틀 2281
▁퍼 2282
이었나 2283
▁최고 2284
▁여성 2285
▁들어가는 2286
▁보자 2287
▁게임을 2288
보자 2289
▁소개 2290
▁나쁜 2291
▁생각하면 2292
▁짓 2293
▁베트남 2294
▁화장 2295
▁저도 2296
▁같던데 2297
▁있지만 2298
▁필요한 2299
▁여행을 2300
왕 2301
으면서 2302
▁괜찮았 2303
▁책을 2304
▁앞에서 2305
▁이쪽 2306
▁북한 2307
▁웃긴 2308
▁원래는 2309
▁사장님 2310
됐다 2311
짜리 2312
쓰 2313
▁성격 2314
▁괜찮은데 2315
▁근처 2316
▁기분이 2317
▁내용이 2318
▁이해가 2319
렸어 2320
▁그러네 2321
▁시작하 2322
가주구 2323
록 2324
▁이따 2325
▁디자인 2326
엠 2327
▁손님 2328
▁등급 2329
얼 2330
빵 2331
해주고 2332
▁플 2333
▁편하 2334
▁옆 2335
▁이거를 2336
▁정치 2337
▁선수 2338
▁척 2339
혹 2340
▁싶고 2341
꾸 2342
▁청소 2343
▁합정 2344
▁그거랑 2345
▁인천 2346
▁정도면 2347
▁뿌 2348
▁수밖에 2349
▁이용 2350
D 2351
▁미세먼지 2352
▁좋게 2353
▁몰랐어 2354
▁나가는 2355
▁있기 2356
▁갔지 2357
변 2358
▁기업 2359
▁갔잖아 2360
▁흐 2361
▁아닐까 2362
▁피부 2363
▁잘하는 2364
겁 2365
▁쉽지 2366
▁그러더라고 2367
▁귀찮아 2368
▁모르고 2369
▁연구 2370
팔 2371
하긴 2372
▁연락을 2373
▁요즘에는 2374
▁보여주 2375
▁필요하 2376
끄 2377
▁싶었는데 2378
▁않지 2379
령 2380
▁할인 2381
▁어릴 2382
▁함께 2383
▁푸 2384
▁이럴 2385
▁같다고 2386
▁과목 2387
하다고 2388
▁경우에는 2389
▁느껴 2390
▁젤 2391
▁들어와 2392
▁미술 2393
장은 2394
든지 2395
▁월급 2396
▁깜짝 2397
▁저거 2398
▁걔네가 2399
▁농 2400
▁상대 2401
▁옆에서 2402
답 2403
▁국민 2404
▁친구들이랑 2405
▁말하면 2406
▁할아버지 2407
▁취직 2408
었을 2409
▁취미 2410
▁다행이 2411
▁신촌 2412
▁만큼 2413
▁피해 2414
▁컴 2415
▁했으니까 2416
▁차이가 2417
핑 2418
▁있단 2419
▁찌 2420
▁벗 2421
▁교수님이 2422
▁짤 2423
욕 2424
▁년에 2425
▁아니었어 2426
맨 2427
찬 2428
컨 2429
▁저희 2430
압 2431
▁정보 2432
▁관계 2433
▁괜찮지 2434
엘 2435
▁했으면 2436
침 2437
생활 2438
▁좋다고 2439
▁털 2440
▁헬스 2441
▁들었는데 2442
▁기계 2443
▁노트북 2444
▁샀어 2445
▁이후로 2446
▁말은 2447
▁갔던 2448
쁠 2449
▁갈까 2450
▁측 2451
▁후회 2452
▁보험 2453
었나 2454
취 2455
P 2456
▁가잖아 2457
있어 2458
▁집중 2459
둔 2460
▁옷을 2461
▁부분이 2462
▁평일 2463
멍 2464
혈 2465
주의 2466
▁들을 2467
▁과정 2468
▁써야 2469
▁싫다 2470
▁빡 2471
▁얘기하고 2472
▁먼 2473
롭 2474
▁연예인 2475
패 2476
▁숙소 2477
▁됐다 2478
▁구백 2479
▁없어가지고 2480
▁좋았어 2481
▁뭔데 2482
▁서른 2483
▁동기 2484
▁솔 2485
▁쪽이 2486
▁말했다 2487
▁출근 2488
택 2489
된다 2490
▁어려워 2491
▁신발 2492
▁엄마는 2493
▁봤다 2494
▁사주 2495
▁추천 2496
앤 2497
▁봤던 2498
▁거에요 2499
▁한두 2500
▁십만 2501
힌 2502
▁영화를 2503
컵 2504
들끼리 2505
▁롯데 2506
▁기다리 2507
▁만원 2508
▁아니냐 2509
▁행동 2510
▁있었다 2511
느냐 2512
▁식당 2513
▁치고 2514
▁않은데 2515
▁여름에 2516
▁나는데 2517
럼 2518
롱 2519
룸 2520
▁일부러 2521
▁훈련 2522
▁의원 2523
▁도착 2524
▁쉽게 2525
▁얘네 2526
▁경영 2527
▁의사 2528
▁갖다 2529
▁다니면서 2530
▁들어가면 2531
▁마음에 2532
▁프로그램 2533
▁마시고 2534
▁그만큼 2535
▁그러다가 2536
빛 2537
▁되냐 2538
▁감정 2539
▁친구들이 2540
▁추가 2541
▁바쁘 2542
▁하던데 2543
▁있었잖아 2544
▁휴가 2545
▁뭐였지 2546
▁형은 2547
듯이 2548
▁합격 2549
▁겨울에 2550
▁원하는 2551
▁걔네는 2552
▁특별 2553
형이 2554
▁그양 2555
▁괜찮다 2556
훈 2557
▁스타 2558
삭 2559
▁목표 2560
덴 2561
▁요번에 2562
리스 2563
▁하여튼 2564
▁광고 2565
▁시즌 2566
▁배우는 2567
▁복학 2568
▁송 2569
▁웃기 2570
▁성격이 2571
▁언니는 2572
▁중이야 2573
▁얘들 2574
▁것은 2575
▁대로 2576
▁노는 2577
져서 2578
▁C 2579
으니깐 2580
▁그러는데 2581
▁배우고 2582
육 2583
▁문자 2584
▁추워 2585
버려 2586
봤는데 2587
▁초반 2588
찰 2589
궁 2590
골 2591
▁표현 2592
▁시부터 2593
▁하던 2594
▁같더라고 2595
삼 2596
댄 2597
▁뉴스 2598
쉬 2599
▁따라서 2600
▁이러면 2601
▁해줬 2602
▁자유 2603
▁있겠다 2604
▁만화 2605
▁비슷하 2606
시켜 2607
▁귀엽 2608
▁능력 2609
▁필요가 2610
▁질문 2611
▁영국 2612
네요 2613
▁떨어져 2614
▁뒤로 2615
끌 2616
▁계산 2617
▁교통 2618
▁기술 2619
▁알겠어 2620
▁농구 2621
▁해결 2622
▁같아서 2623
▁재밌었 2624
▁가까운 2625
빠 2626
▁싶다고 2627
▁재밌었어 2628
납 2629
▁외국인 2630
▁정확히 2631
▁들으면 2632
▁과제 2633
▁존 2634
▁캐 2635
했습니다 2636
▁아픈 2637
였거든 2638
▁전역 2639
달라 2640
풍 2641
▁성공 2642
▁상담 2643
▁서울대 2644
▁아닐 2645
놈 2646
▁헌 2647
▁페이 2648
▁일주일에 2649
▁최근 2650
▁땅 2651
▁갈려고 2652
▁맥 2653
층 2654
▁읽어 2655
셋 2656
▁학교에 2657
가꼬 2658
▁언어 2659
랜드 2660
▁한다는 2661
▁끄치 2662
▁국내 2663
▁대학원 2664
▁좋아하고 2665
▁자전거 2666
▁검사 2667
▁연락이 2668
봤자 2669
▁얘기할 2670
▁재밌을 2671
▁쟤 2672
▁지나가 2673
▁뽑아 2674
▁다닌 2675
▁맘에 2676
▁쎄 2677
▁쓰면 2678
▁있었지 2679
낭 2680
▁오전 2681
▁봄 2682
▁넣고 2683
▁여유 2684
▁입어 2685
▁떼 2686
▁맛집 2687
▁곳이 2688
▁북 2689
▁멀리 2690
▁말라고 2691
혁 2692
▁충격 2693
▁위험 2694
▁모르겠 2695
▁비용 2696
다며 2697
▁용돈 2698
▁평소에 2699
▁강의 2700
▁나왔는데 2701
드리 2702
▁만들고 2703
▁분명히 2704
이었다 2705
▁포함 2706
했고 2707
▁돼요 2708
▁여자가 2709
▁찬 2710
든데 2711
▁헬스장 2712
▁검색 2713
▁충분히 2714
▁싸게 2715
▁안경 2716
▁끄 2717
▁가봤어 2718
▁왠지 2719
씨는 2720
▁돌려 2721
즐 2722
▁계약 2723
먼 2724
▁얘는 2725
▁과외 2726
▁나보다 2727
▁나쁘 2728
▁아줌마 2729
탑 2730
▁그러게 2731
▁넘게 2732
▁들어왔 2733
▁삼천 2734
철 2735
▁않다 2736
▁만들었 2737
여행 2738
▁할라고 2739
▁꿀 2740
▁돌아다니 2741
알 2742
▁좋아서 2743
삐 2744
▁싶었 2745
I 2746
돈 2747
▁신고 2748
▁폐 2749
▁봤잖아 2750
▁인기 2751
▁행사 2752
▁만에 2753
하거든 2754
▁하나씩 2755
▁사촌 2756
▁춥 2757
▁애들한테 2758
탈 2759
▁항공 2760
▁똥 2761
봤어 2762
▁알려주 2763
▁가끔씩 2764
▁A 2765
념 2766
▁끊어 2767
섬 2768
맛 2769
▁그니깐 2770
▁꽃 2771
▁스타일이 2772
▁불안 2773
▁마리 2774
▁하셨 2775
휘 2776
▁해주는 2777
▁만약 2778
▁사람한테 2779
응 2780
▁녹 2781
▁헐 2782
▁가자고 2783
▁궁금해 2784
▁있겠 2785
▁독일 2786
▁갈래 2787
▁목요일 2788
▁그것만 2789
▁정돈 2790
▁먹는데 2791
▁남편 2792
▁앉아 2793
▁맞추 2794
넷 2795
▁무서운 2796
▁봐봐 2797
▁말할 2798
▁마셔 2799
▁들면 2800
▁진행 2801
팀 2802
▁해줘 2803
▁편입 2804
▁부모님이 2805
▁소주 2806
았다 2807
▁원인가 2808
▁하라고 2809
▁나온다 2810
▁좋아하는데 2811
▁경쟁 2812
▁낳 2813
▁곧 2814
▁심하 2815
▁나가고 2816
▁캐릭터 2817
▁침 2818
▁공간 2819
앙 2820
클 2821
▁당연하지 2822
▁혼자서 2823
▁니네 2824
▁심해 2825
짝 2826
▁껴 2827
▁마셨 2828
▁먹기 2829
▁아깝 2830
▁생겨 2831
▁되거든 2832
▁봉 2833
▁맞춰서 2834
▁학교를 2835
▁가방 2836
▁모르겠고 2837
▁번호 2838
▁국어 2839
▁일어나서 2840
되지 2841
▁맞았 2842
▁오랜만에 2843
착 2844
겠는데 2845
센터 2846
▁가만히 2847
▁가깝 2848
▁그때부터 2849
▁일어났 2850
닌 2851
▁편집 2852
▁밖에서 2853
▁팔아 2854
▁미래 2855
렸다 2856
▁똑같애 2857
▁있었고 2858
▁걱정이 2859
▁놀아 2860
다매 2861
▁그랬거든 2862
▁쓰레기 2863
▁돼가지고 2864
▁쏘 2865
▁염색 2866
▁이것도 2867
▁조심 2868
▁고생 2869
닝 2870
뉴 2871
▁옛날에는 2872
▁예쁜 2873
▁편하게 2874
▁신기하 2875
▁오빠는 2876
▁풍 2877
▁날짜 2878
▁스토리 2879
▁실력 2880
논 2881
웃 2882
▁프리 2883
쌀 2884
▁인간 2885
스크 2886
더라구 2887
▁클럽 2888
▁예전 2889
▁뜻 2890
릿 2891
▁끝나면 2892
▁그땐 2893
▁아직까지 2894
▁연결 2895
▁나간 2896
▁찍었 2897
▁전날 2898
▁설날 2899
껄 2900
▁겁나 2901
▁했더니 2902
▁장학금 2903
▁높아 2904
하더라고 2905
▁전자 2906
▁누나가 2907
▁그러잖아 2908
분들 2909
▁만나면 2910
▁갖 2911
▁거라서 2912
▁가격이 2913
▁때문이 2914
▁마지막에 2915
▁화가 2916
픽 2917
쇼 2918
캠 2919
▁없나 2920
▁낙 2921
▁윤 2922
▁촬영 2923
▁대구 2924
▁다이어트 2925
▁영화관 2926
맥 2927
▁최소 2928
▁나보고 2929
▁그랬나 2930
▁것들이 2931
▁수요일 2932
▁걔한테 2933
▁뻔 2934
▁붙었 2935
이어서 2936
▁거짓말 2937
▁데리고 2938
▁오면은 2939
▁쉬는 2940
▁가기로 2941
놨어 2942
라니까 2943
하신 2944
▁준비를 2945
▁개인적으로 2946
▁멀어 2947
▁백만 2948
▁힘들지 2949
▁불편하 2950
▁명이서 2951
버린 2952
▁콘서트 2953
▁최대한 2954
▁있던데 2955
▁상상 2956
했나 2957
▁큰일 2958
▁효과 2959
틀 2960
▁된다는 2961
▁짱 2962
팩 2963
▁튀 2964
▁연극 2965
▁해줄 2966
▁배운 2967
▁먹어봤 2968
광 2969
▁환경 2970
▁시골 2971
▁놀았 2972
▁자연 2973
▁이따가 2974
▁카메라 2975
▁시쯤 2976
이에요 2977
▁쌤이 2978
▁일정 2979
▁출발 2980
했네 2981
가주고 2982
▁도서관 2983
겠냐 2984
▁무료 2985
▁것이다 2986
꽂 2987
▁느낀 2988
▁않았나 2989
▁닫 2990
▁나오잖아 2991
▁말했잖아 2992
▁빠르 2993
▁호선 2994
▁자식 2995
할까 2996
섭 2997
▁계시 2998
▁가정 2999
▁끝까지 3000
턴 3001
▁중국어 3002
▁모두 3003
▁싶으면 3004
▁처음부터 3005
▁과학 3006
첨 3007
▁받으면 3008
▁단어 3009
▁완전히 3010
▁스키 3011
▁받았어 3012
였잖아 3013
▁한국인 3014
▁전부 3015
소리 3016
▁죽을 3017
▁책임 3018
▁것보다 3019
▁일본어 3020
▁난리 3021
▁어디로 3022
▁헤어지 3023
▁전화를 3024
폴 3025
▁보다가 3026
▁했대 3027
▁근무 3028
▁학생들 3029
▁그랬다 3030
▁좋긴 3031
핵 3032
▁아쉽 3033
▁위치 3034
▁에스 3035
▁생각나 3036
▁아이까 3037
▁파티 3038
▁경력 3039
▁재미가 3040
▁나오지 3041
▁되겠지 3042
웨이 3043
학교 3044
▁구경 3045
▁모임 3046
▁사람들한테 3047
▁글쎄 3048
▁모르겠지만 3049
쳐서 3050
▁주문 3051
었으니까 3052
▁빠졌 3053
▁싶긴 3054
▁사귀 3055
▁길게 3056
▁모여 3057
▁남아 3058
▁사천 3059
▁운영 3060
▁눈에 3061
춘 3062
크림 3063
▁입시 3064
딱 3065
뼈 3066
▁모르니까 3067
▁시급 3068
▁이것 3069
여가지고 3070
▁핫 3071
셀 3072
▁새벽에 3073
렁 3074
▁됐지 3075
▁메뉴 3076
죄 3077
▁오래됐 3078
▁팔천 3079
▁폰 3080
▁하겠 3081
▁어플 3082
▁대체 3083
▁한국에서 3084
▁받아야 3085
▁역할 3086
▁풀어 3087
▁이것저것 3088
▁이미지 3089
시키 3090
▁브랜드 3091
▁영향 3092
▁웃겨 3093
▁넷플릭스 3094
▁당시 3095
▁먹으 3096
뚜 3097
촉 3098
s 3099
▁현재 3100
▁정시 3101
▁돈으로 3102
▁스키장 3103
▁작가 3104
▁호주 3105
▁문과 3106
▁봐야지 3107
▁도와 3108
▁보네 3109
▁이래가지고 3110
▁역사 3111
▁남자들 3112
▁부모 3113
▁치료 3114
▁힘들었 3115
암 3116
되면 3117
럭 3118
▁화요일 3119
▁도움이 3120
▁침대 3121
▁무시 3122
▁알아보 3123
칙 3124
▁군인 3125
▁아니지만 3126
▁도움 3127
▁쉬운 3128
쌍 3129
우니까 3130
몽 3131
▁않잖아 3132
▁원씩 3133
c 3134
▁빡세 3135
▁허리 3136
▁남자애 3137
▁위한 3138
▁스스로 3139
▁아니었 3140
냉 3141
틴 3142
▁봉사 3143
▁읽었 3144
▁뭐냐면 3145
▁평균 3146
▁한참 3147
▁쉽 3148
▁야구 3149
▁될까 3150
▁근육 3151
▁작품 3152
▁그중에 3153
▁되더라고 3154
▁웹툰 3155
톤 3156
황 3157
▁연말 3158
께서 3159
▁아빠한테 3160
▁쉬고 3161
▁계란 3162
펴 3163
▁걸렸 3164
▁술집 3165
▁모자 3166
▁네이버 3167
떠 3168
셔서 3169
시장 3170
▁틀어 3171
▁끝난 3172
▁싹 3173
▁키워 3174
▁체력 3175
꼴 3176
▁쪽에서 3177
O 3178
▁관광 3179
▁배울 3180
▁만족 3181
▁셋이 3182
▁없대 3183
▁현대 3184
▁몰르 3185
▁해봤어 3186
▁피아노 3187
▁과일 3188
▁되어 3189
▁웬만하면 3190
▁매장 3191
▁대학생 3192
당한 3193
새 3194
▁평가 3195
칸 3196
혔 3197
▁서비스 3198
줬는데 3199
▁티켓 3200
▁끼고 3201
켓 3202
섯 3203
카드 3204
렀 3205
▁최저 3206
▁야간 3207
갠 3208
▁비교 3209
▁기능 3210
▁발전 3211
▁싫어하는 3212
▁되겠네 3213
▁소리야 3214
▁방금 3215
▁갔거든 3216
그룹 3217
▁편한 3218
▁노래방 3219
▁아르바이트 3220
쩌 3221
손 3222
하겠다 3223
▁의견 3224
▁왔잖아 3225
봐야겠다 3226
별로 3227
▁가족들 3228
▁움직이 3229
빨 3230
슴 3231
썰 3232
큐 3233
컷 3234
충 3235
괴 3236
겸 3237
뤄 3238
것 3239
턱 3240
느 3241
덮 3242
엉 3243
뜨 3244
탐 3245
찐 3246
콜 3247
몰 3248
잇 3249
혼 3250
쩍 3251
겹 3252
풀 3253
F 3254
덤 3255
둥 3256
둘 3257
긍 3258
곱 3259
끈 3260
흡 3261
써 3262
랄 3263
딘 3264
꽁 3265
샤 3266
또 3267
t 3268
억 3269
잖 3270
쿨 3271
힐 3272
컬 3273
깜 3274
죽 3275
흘 3276
R 3277
릇 3278
혐 3279
핸 3280
빤 3281
욱 3282
뚝 3283
G 3284
균 3285
귀 3286
묵 3287
얀 3288
밖 3289
갚 3290
랩 3291
놀 3292
묘 3293
확 3294
띠 3295
밑 3296
픈 3297
븐 3298
텔 3299
릭 3300
늘 3301
찔 3302
엑 3303
벤 3304
묶 3305
덩 3306
칭 3307
델 3308
뽀 3309
템 3310
폭 3311
춰 3312
콩 3313
댔 3314
씹 3315
흑 3316
겉 3317
꾼 3318
짐 3319
빅 3320
딜 3321
찜 3322
략 3323
곳 3324
쟁 3325
눌 3326
랍 3327
곰 3328
팝 3329
램 3330
측 3331
숭 3332
닦 3333
멘 3334
쥐 3335
샘 3336
둬 3337
렛 3338
짠 3339
렉 3340
뇌 3341
벨 3342
닭 3343
캡 3344
펜 3345
N 3346
긋 3347
완 3348
a 3349
짓 3350
잘 3351
쭈 3352
웬 3353
엄 3354
땀 3355
접 3356
댕 3357
잠 3358
L 3359
멈 3360
닿 3361
융 3362
꼽 3363
윤 3364
웅 3365
밍 3366
K 3367
캔 3368
뜬 3369
쇠 3370
폐 3371
랭 3372
닐 3373
캐 3374
V 3375
푸 3376
틱 3377
척 3378
김 3379
덜 3380
b 3381
뮤 3382
듬 3383
허 3384
쩐 3385
맹 3386
뒀 3387
냅 3388
총 3389
윗 3390
렴 3391
엇 3392
X 3393
옷 3394
p 3395
쪘 3396
쵸 3397
E 3398
n 3399
썸 3400
핀 3401
쌤 3402
샵 3403
갓 3404
껌 3405
귤 3406
굽 3407
겐 3408
홍 3409
폼 3410
솔 3411
o 3412
홈 3413
꽃 3414
껍 3415
뷰 3416
뢰 3417
콤 3418
즉 3419
앵 3420
귄 3421
썩 3422
뺄 3423
붙 3424
슷 3425
빡 3426
돋 3427
덥 3428
뱅 3429
갖 3430
흠 3431
팍 3432
벼 3433
넨 3434
닉 3435
A 3436
끗 3437
톱 3438
앗 3439
J 3440
폰 3441
e 3442
맙 3443
맵 3444
쾌 3445
뺀 3446
셜 3447
및 3448
믹 3449
붓 3450
꼼 3451
챙 3452
뜩 3453
뜻 3454
찝 3455
헌 3456
특 3457
팡 3458
엽 3459
떼 3460
릉 3461
쩡 3462
r 3463
g 3464
잼 3465
쭐 3466
쇄 3467
윈 3468
텀 3469
헬 3470
룩 3471
둑 3472
뻐 3473
텍 3474
짬 3475
펌 3476
낄 3477
댓 3478
껴 3479
i 3480
m 3481
쉰 3482
눈 3483
참 3484
밤 3485
쁜 3486
쌩 3487
롤 3488
뱃 3489
쪄 3490
뻥 3491
뻤 3492
k 3493
섰 3494
줌 3495
듀 3496
푼 3497
롯 3498
숨 3499
듣 3500
궈 3501
탓 3502
흰 3503
웨 3504
빗 3505
룰 3506
멸 3507
봇 3508
땠 3509
햇 3510
탱 3511
윙 3512
뻔 3513
퉁 3514
엥 3515
털 3516
멜 3517
d 3518
갱 3519
댁 3520
륙 3521
밴 3522
녕 3523
쿼 3524
쉐 3525
튜 3526
깃 3527
깡 3528
빌 3529
앴 3530
샌 3531
뿔 3532
뱀 3533
껏 3534
랫 3535
빔 3536
빽 3537
숲 3538
몸 3539
벅 3540
썬 3541
밭 3542
몇 3543
륵 3544
덧 3545
탠 3546
핏 3547
헛 3548
싶 3549
농 3550
굿 3551
쥬 3552
샷 3553
꼰 3554
넥 3555
낀 3556
뇨 3557
옹 3558
섹 3559
쎈 3560
룬 3561
큼 3562
씬 3563
칩 3564
햄 3565
쓸 3566
꿀 3567
뎅 3568
깥 3569
v 3570
므 3571
뜰 3572
횡 3573
랙 3574
펑 3575
뀔 3576
첩 3577
팽 3578
맻 3579
껀 3580
푹 3581
럴 3582
뉘 3583
냄 3584
틈 3585
띵 3586
옵 3587
즌 3588
못 3589
획 3590
렬 3591
젓 3592
졸 3593
즘 3594
셈 3595
최 3596
땜 3597
깔 3598
l 3599
땅 3600
훅 3601
퀘 3602
냠 3603
슐 3604
1 3605
귈 3606
H 3607
쩔 3608
횟 3609
닷 3610
냬 3611
칫 3612
훌 3613
첼 3614
칼 3615
괌 3616
뻘 3617
퀴 3618
넣 3619
같 3620
뽕 3621
젤 3622
숏 3623
틸 3624
넘 3625
똥 3626
렵 3627
룡 3628
굔 3629
젖 3630
앞 3631
얄 3632
짱 3633
옴 3634
흐 3635
츄 3636
갤 3637
펀 3638
괄 3639
딴 3640
쑥 3641
딸 3642
깄 3643
챔 3644
콕 3645
u 3646
꽈 3647
찡 3648
튀 3649
깨 3650
밸 3651
곽 3652
왤 3653
Y 3654
갸 3655
녜 3656
똘 3657
얘 3658
꿔 3659
킥 3660
탭 3661
큰 3662
렷 3663
쁨 3664
줍 3665
솜 3666
앨 3667
팬 3668
랗 3669
훼 3670
펐 3671
2 3672
f 3673
쭉 3674
돔 3675
벙 3676
텅 3677
툴 3678
퓨 3679
콧 3680
걱 3681
x 3682
삽 3683
짖 3684
쓱 3685
뭐 3686
y 3687
겟 3688
욘 3689
벳 3690
팟 3691
겄 3692
륜 3693
텝 3694
킷 3695
셰 3696
짚 3697
찹 3698
귓 3699
깅 3700
됨 3701
홉 3702
욜 3703
숍 3704
얌 3705
캉 3706
뛸 3707
왓 3708
엿 3709
퍽 3710
읍 3711
퀸 3712
댈 3713
쿡 3714
풋 3715
잎 3716
힙 3717
뭇 3718
뻑 3719
않 3720
씀 3721
눕 3722
갇 3723
쉽 3724
렘 3725
촛 3726
깁 3727
텨 3728
흙 3729
뒤 3730
썹 3731
멧 3732
돕 3733
팸 3734
깍 3735
봄 3736
삿 3737
쯔 3738
퐁 3739
싼 3740
쌔 3741
끝 3742
눅 3743
쁘 3744
팜 3745
엣 3746
톨 3747
헤 3748
j 3749
펄 3750
쬐 3751
슥 3752
왠 3753
릅 3754
셉 3755
럿 3756
렙 3757
짭 3758
릏 3759
샹 3760
쭝 3761
늑 3762
붐 3763
잣 3764
즙 3765
돗 3766
쎄 3767
륭 3768
덟 3769
둡 3770
낑 3771
닫 3772
h 3773
쩜 3774
왁 3775
펭 3776
녁 3777
줏 3778
펠 3779
컴 3780
륨 3781
쫑 3782
랴 3783
떤 3784
짼 3785
싹 3786
깬 3787
첸 3788
헨 3789
뿌 3790
겜 3791
뎌 3792
싯 3793
멀 3794
렐 3795
솥 3796
팥 3797
꿈 3798
웰 3799
컥 3800
헝 3801
챠 3802
왈 3803
윽 3804
쑤 3805
롬 3806
쏟 3807
껜 3808
횐 3809
3 3810
깝 3811
킵 3812
뜸 3813
씽 3814
잭 3815
꼭 3816
볍 3817
윌 3818
뚤 3819
젯 3820
꾹 3821
꿍 3822
룻 3823
곈 3824
잌 3825
벡 3826
낌 3827
펙 3828
쭘 3829
핬 3830
멕 3831
짤 3832
넬 3833
큘 3834
캄 3835
쪼 3836
W 3837
엌 3838
쟀 3839
밋 3840
깰 3841
꽝 3842
삥 3843
뗄 3844
슛 3845
맸 3846
쏭 3847
헐 3848
Q 3849
겔 3850
랠 3851
숯 3852
씸 3853
읏 3854
킴 3855
텼 3856
탬 3857
잰 3858
쏘 3859
땐 3860
챌 3861
4 3862
넌 3863
닛 3864
둠 3865
뺨 3866
펍 3867
숫 3868
5 3869
힘 3870
w 3871
삔 3872
캣 3873
쨍 3874
셌 3875
맴 3876
앰 3877
웜 3878
낙 3879
젝 3880
볕 3881
켄 3882
툰 3883
쿤 3884
츤 3885
쉼 3886
쟈 3887
쨈 3888
폿 3889
떵 3890
밲 3891
딥 3892
뽁 3893
둣 3894
옇 3895
좀 3896
썽 3897
켈 3898
톰 3899
휠 3900
춧 3901
늠 3902
녹 3903
떳 3904
굘 3905
쥔 3906
곧 3907
눔 3908
슉 3909
츰 3910
냇 3911
퀄 3912
튿 3913
맷 3914
댐 3915
뎃 3916
룐 3917
젬 3918
칵 3919
훗 3920
찾 3921
뎀 3922
젼 3923
샾 3924
쎌 3925
꽥 3926
냔 3927
맬 3928
옆 3929
쓴 3930
왜 3931
봔 3932
웁 3933
햐 3934
꺄 3935
챈 3936
헹 3937
췌 3938
튠 3939
핼 3940
꿉 3941
웩 3942
쟤 3943
믈 3944
촬 3945
, 3946
샛 3947
샬 3948
얍 3949
굼 3950
딧 3951
옐 3952
놉 3953
똔 3954
띤 3955
몹 3956
빳 3957
7 3958
뇽 3959
듦 3960
텁 3961
딕 3962
헴 3963
8 3964
겅 3965
끅 3966
냑 3967
뎁 3968
룽 3969
얏 3970
튈 3971
잴 3972
깻 3973
떄 3974
랏 3975
쳇 3976
벗 3977
끕 3978
넹 3979
뤼 3980
샥 3981
덱 3982
휜 3983
9 3984
땔 3985
뵐 3986
엡 3987
쨋 3988
쩝 3989
셧 3990
늉 3991
쩨 3992
딛 3993
읜 3994
켔 3995
퓰 3996
낳 3997
쨰 3998
뵌 3999
슁 4000
옌 4001
잿 4002
핫 4003
뽑 4004
햅 4005
q 4006
귿 4007
넴 4008
돛 4009
롸 4010
쥘 4011
큭 4012
횔 4013
탤 4014
곌 4015
뗬 4016
숀 4017
촐 4018
갰 4019
늄 4020
숴 4021
잽 4022
녘 4023
캇 4024
콰 4025
쇤 4026
캅 4027
컫 4028
낫 4029
쫌 4030
깟 4031
넵 4032
뚠 4033
렝 4034
롹 4035
뼘 4036
욤 4037
읔 4038
쳔 4039
켠 4040
콱 4041
큔 4042
덨 4043
넝 4044
춥 4045
겡 4046
씰 4047
헀 4048
Z 4049
룔 4050
뿍 4051
슌 4052
썅 4053
얠 4054
쯩 4055
쿱 4056
튬 4057
푤 4058
힝 4059
셍 4060
챗 4061
넓 4062
걔 4063
쿄 4064
궂 4065
뉸 4066
켑 4067
켸 4068
펨 4069
핌 4070
쌘 4071
밌 4072
땁 4073
굣 4074
굥 4075
뉠 4076
랒 4077
먀 4078
삠 4079
셤 4080
쌨 4081
옙 4082
읒 4083
젱 4084
쨀 4085
촨 4086
힉 4087
꽌 4088
숩 4089
쉈 4090
휸 4091
얬 4092
뭔 4093
뚸 4094
뛌 4095
뤠 4096
맜 4097
z 4098
낏 4099
뇸 4100
뎄 4101
땍 4102
떈 4103
봥 4104
샨 4105
쒸 4106
욧 4107
줜 4108
짔 4109
짯 4110
쯘 4111
켤 4112
큽 4113
탉 4114
폔 4115
혠 4116
녈 4117
퀀 4118
맀 4119
돠 4120
솨 4121
쭙 4122
쳥 4123
뿟 4124
겝 4125
꺅 4126
껸 4127
꼇 4128
냘 4129
놘 4130
댜 4131
덷 4132
땃 4133
맽 4134
멏 4135
뫠 4136
뭠 4137
믐 4138
밨 4139
뱌 4140
볏 4141
뵤 4142
뽝 4143
삯 4144
셩 4145
쎅 4146
쎔 4147
쏵 4148
쒀 4149
웟 4150
웡 4151
읐 4152
좍 4153
죵 4154
쨉 4155
쩄 4156
챂 4157
췰 4158
칬 4159
퀼 4160
픗 4161
헙 4162
휀 4163
힛 4164
뱁 4165
뾱 4166
빝 4167
룹 4168
껨 4169
뷴 4170
뷸 4171
갼 4172
꼄 4173
낢 4174
냡 4175
눟 4176
뉩 4177
늗 4178
됙 4179
됴 4180
랟 4181
랮 4182
릈 4183
묜 4184
뭑 4185
뭬 4186
믕 4187
볌 4188
봈 4189
빘 4190
솝 4191
싷 4192
쏸 4193
얐 4194
엤 4195
옫 4196
왬 4197
잍 4198
잧 4199
쟝 4200
졍 4201
좐 4202
쥰 4203
쩧 4204
쩬 4205
쫏 4206
쭁 4207
쵝 4208
츳 4209
켁 4210
콴 4211
틍 4212
틑 4213
퐉 4214
픕 4215
픙 4216
핟 4217
햘 4218
헜 4219
흄 4220
흣 4221
떱 4222
츈 4223
츨 4224
짆 4225
샅 4226
욍 4227
% 4228
흝 4229
헸 4230
햑 4231
푀 4232
큣 4233
퀏 4234
칟 4235
촙 4236
찦 4237
찟 4238
옜 4239
옉 4240
얉 4241
쒯 4242
쑐 4243
썻 4244
쌕 4245
솎 4246
삻 4247
봽 4248
벋 4249
뮴 4250
맇 4251
륑 4252
듈 4253
됫 4254
됑 4255
댤 4256
닯 4257
눗 4258
넚 4259
꾿 4260
꼳 4261
겊 4262
퐈 4263
팹 4264
틔 4265
퇸 4266
텟 4267
탰 4268
쬬 4269
줴 4270
좃 4271
젋 4272
읃 4273
왯 4274
옭 4275
씅 4276
쑹 4277
슾 4278
쉣 4279
셸 4280
뻰 4281
밎 4282
뭡 4283
뭍 4284
묭 4285
멎 4286
뙤 4287
떔 4288
늰 4289
뀜 4290
꽹 4291
꽐 4292
곘 4293
뫼 4294
훙 4295
퉜 4296
쿰 4297
켕 4298
칡 4299
죗 4300
쏼 4301
쌂 4302
셴 4303
뽜 4304
뻠 4305
띌 4306
띈 4307
떽 4308
떰 4309
늣 4310
놥 4311
넒 4312
갉 4313
퉤 4314
퀭 4315
췻 4316
챡 4317
앎 4318
씼 4319
쑨 4320
쐐 4321
뱄 4322
뭥 4323
멨 4324
땟 4325
귐 4326
겋 4327
롄 4328
횰 4329
펩 4330
쩠 4331
앝 4332
쓕 4333
썜 4334
삣 4335
빻 4336
몀 4337
떫 4338
꿎 4339
캤 4340
찧 4341
쮸 4342
읗 4343
윅 4344
쌜 4345
쌉 4346
쉿 4347
쇳 4348
뼌 4349
밈 4350
룟 4351
뜀 4352
꾜 4353
켐 4354
읎 4355
띔 4356
땋 4357
넋 4358
꿩 4359
꼿 4360
곯 4361
휑 4362
퓸 4363
튄 4364
쭌 4365
걍 4366
뭘 4367
엷 4368
뿡 4369
뻬 4370
끍 4371
렜 4372
홧 4373
푯 4374
팼 4375
탯 4376
짢 4377
읊 4378
놋 4379
촤 4380
쐬 4381
혓 4382
킁 4383
쌋 4384
쉑 4385
빢 4386
묽 4387
뎠 4388
훤 4389
쑈 4390
롷 4391
텄 4392
쫒 4393
윳 4394
쉭 4395
쇽 4396
덫 4397
댑 4398
꺽 4399
곪 4400
넙 4401
윰 4402
웍 4403
앳 4404
멩 4405
짊 4406
틋 4407
콸 4408
슘 4409
뺌 4410
멱 4411
뒨 4412
긌 4413
쁩 4414
띃 4415
윷 4416
옅 4417
뭄 4418
뉜 4419
좆 4420
첵 4421
숄 4422
곗 4423
괭 4424
헥 4425
폄 4426
캬 4427
챕 4428
똠 4429
쟨 4430
멓 4431
챘 4432
쯧 4433
짹 4434
몄 4435
궜 4436
팰 4437
볐 4438
뗘 4439
늪 4440
뿅 4441
빰 4442
딤 4443
걜 4444
밧 4445
띨 4446
낵 4447
낱 4448
갬 4449
6 4450
쫘 4451
싣 4452
뗀 4453
꾀 4454
쏜 4455
쎘 4456
숑 4457
쉘 4458
깽 4459
촥 4460
끙 4461
콥 4462
팻 4463
퀵 4464
봬 4465
꺠 4466
잦 4467
뼛 4468
맏 4469
쐈 4470
궤 4471
긱 4472
푠 4473
랖 4474
꿰 4475
죙 4476
뵀 4477
썪 4478
얕 4479
휙 4480
찻 4481
쥴 4482
섣 4483
띡 4484
궐 4485
걀 4486
헉 4487
뽂 4488
뮌 4489
곶 4490
삑 4491
밉 4492
꿋 4493
홋 4494
됬 4495
훑 4496
캥 4497
쫀 4498
빕 4499
뗐 4500
뽈 4501
닳 4502
눴 4503
뽐 4504
뻣 4505
핥 4506
앚 4507
꿇 4508
갭 4509
핍 4510
끽 4511
짙 4512
뵙 4513
쾅 4514
튕 4515
쌰 4516
섀 4517
흩 4518
갛 4519
솟 4520
얽 4521
텃 4522
샜 4523
뾰 4524
휩 4525
뒹 4526
컹 4527
괘 4528
팎 4529
쩰 4530
씁 4531
낡 4532
슝 4533
촘 4534
삘 4535
뮬 4536
딲 4537
뿜 4538
듭 4539
곁 4540
껐 4541
뛴 4542
툼 4543
쏴 4544
쏙 4545
갯 4546
뵈 4547
숟 4548
몫 4549
넜 4550
뤘 4551
얗 4552
앓 4553
늫 4554
픔 4555
펫 4556
얜 4557
샴 4558
엮 4559
깠 4560
캘 4561
쭤 4562
굵 4563
꺾 4564
훠 4565
붉 4566
0 4567
뻗 4568
벚 4569
숱 4570
맑 4571
쿵 4572
옳 4573
봅 4574
씌 4575
늬 4576
폈 4577
넛 4578
팁 4579
뱉 4580
뭣 4581
깼 4582
굶 4583
짰 4584
맺 4585
얹 4586
찼 4587
껑 4588
닙 4589
훔 4590
U 4591
맣 4592
툭 4593
펼 4594
흉 4595
뺑 4596
쏠 4597
빴 4598
뭉 4599
멤 4600
넉 4601
딪 4602
엎 4603
췄 4604
낯 4605
엊 4606
빚 4607
쫍 4608
쌈 4609
밟 4610
쉴 4611
됩 4612
긁 4613
쌌 4614
늙 4615
찢 4616
좁 4617
쫙 4618
뺏 4619
헷 4620
앱 4621
쫓 4622
샐 4623
꽉 4624
쫄 4625
뀐 4626
릎 4627
땄 4628
뷔 4629
뜯 4630
낚 4631
띄 4632
뺐 4633
붕 4634
얇 4635
왼 4636
팠 4637
겪 4638
잊 4639
뚱 4640
닮 4641
끓 4642
꼐 4643
떴 4644
컸 4645
깎 4646
꿨 4647
섞 4648
딨 4649
뒷 4650
묻 4651
걷 4652
삶 4653
웹 4654
씻 4655
걘 4656
잃 4657
켰 4658
깊 4659
뚫 4660
눠 4661
탔 4662
얻 4663
뀌 4664
옮 4665
젊 4666
맡 4667
잤 4668
밝 4669
꽤 4670
쌓 4671
짧 4672
멋 4673
흔 4674
믿 4675
쳤 4676
볶 4677
꼈 4678
녔 4679
낮 4680
훨 4681
굉 4682
뛰 4683
첫 4684
썼 4685
냈 4686
앉 4687
샀 4688
끊 4689
굳 4690
높 4691
늦 4692
읽 4693
쨌 4694
빼 4695
웠 4696
옛 4697
놓 4698
찍 4699
싫 4700
괜 4701
찮 4702
떻 4703
랬 4704
맞 4705
좋 4706
많 4707
뗌 4708
뗏 4709
몪 4710
뵜 4711
쌧 4712
쯪 4713
캑 4714
큡 4715
픅 4716
헵 4717
훕 4718
훝 4719
읺 4720
갗 4721
갹 4722
걈 4723
걉 4724
걋 4725
걤 4726
걧 4727
겓 4728
겻 4729
괞 4730
굑 4731
궝 4732
귬 4733
귯 4734
긃 4735
긔 4736
깞 4737
깸 4738
꺌 4739
꺤 4740
껒 4741
껵 4742
꽜 4743
꽨 4744
꽷 4745
꿑 4746
꿘 4747
꿜 4748
뀨 4749
뀰 4750
낋 4751
낟 4752
냣 4753
녓 4754
놏 4755
뇬 4756
뇰 4757
눓 4758
뉼 4759
늡 4760
닜 4761
닪 4762
닲 4763
닸 4764
닻 4765
댇 4766
덯 4767
뎡 4768
돚 4769
됀 4770
됄 4771
뒴 4772
듶 4773
듸 4774
딫 4775
딿 4776
땝 4777
땬 4778
떌 4779
떙 4780
똡 4781
똣 4782
똫 4783
뙈 4784
뚬 4785
뛘 4786
뜌 4787
뜷 4788
뜹 4789
뜽 4790
럐 4791
럤 4792
렿 4793
뢉 4794
뢍 4795
뢴 4796
룃 4797
뤃 4798
뤤 4799
맫 4800
맿 4801
먁 4802
먄 4803
먕 4804
먙 4805
먺 4806
몁 4807
묀 4808
묙 4809
뭰 4810
믁 4811
믾 4812
밚 4813
밷 4814
뱍 4815
뱡 4816
벘 4817
벛 4818
벝 4819
벰 4820
벱 4821
벵 4822
볻 4823
봘 4824
봠 4825
봡 4826
붇 4827
붜 4828
뷘 4829
뷜 4830
뷥 4831
븅 4832
빱 4833
빶 4834
빾 4835
뺘 4836
뺸 4837
뼉 4838
뼜 4839
뽄 4840
뿕 4841
뿝 4842
쀨 4843
쁸 4844
삧 4845
삵 4846
샄 4847
샆 4848
셕 4849
셥 4850
쉅 4851
쉪 4852
슦 4853
싧 4854
싰 4855
싻 4856
썃 4857
쎙 4858
쎤 4859
쎼 4860
쏱 4861
쐴 4862
쑬 4863
쒔 4864
쒹 4865
쓍 4866
씃 4867
씄 4868
씉 4869
앏 4870
앜 4871
앟 4872
앺 4873
얋 4874
얖 4875
얫 4876
얾 4877
엏 4878
엩 4879
옂 4880
옘 4881
옯 4882
옼 4883
왐 4884
왝 4885
왱 4886
욌 4887
웝 4888
웸 4889
윘 4890
윜 4891
읓 4892
읖 4893
읠 4894
읭 4895
잕 4896
잛 4897
쟬 4898
젔 4899
젭 4900
젰 4901
졀 4902
졔 4903
좇 4904
좔 4905
좜 4906
죈 4907
죤 4908
줋 4909
줐 4910
줠 4911
쥑 4912
쥣 4913
쥼 4914
짇 4915
짦 4916
쨔 4917
쨩 4918
쩟 4919
쩻 4920
쪈 4921
쪗 4922
쪙 4923
쪠 4924
쫬 4925
쬠 4926
쭗 4927
쮜 4928
쯕 4929
찠 4930
챃 4931
챚 4932
챤 4933
쳉 4934
쵤 4935
춴 4936
췍 4937
췔 4938
췬 4939
칧 4940
캍 4941
캎 4942
캭 4943
컁 4944
컾 4945
켯 4946
쾡 4947
쿈 4948
쿌 4949
큄 4950
큇 4951
큿 4952
탙 4953
텋 4954
톺 4955
퇼 4956
툐 4957
툿 4958
퉈 4959
튁 4960
튤 4961
틉 4962
팄 4963
팤 4964
퍄 4965
퍈 4966
퐅 4967
푱 4968
푿 4969
풉 4970
풰 4971
퓩 4972
핧 4973
핱 4974
햔 4975
햬 4976
혤 4977
혬 4978
홤 4979
홰 4980
횃 4981
횠 4982
횩 4983
횻 4984
훜 4985
휨 4986
휭 4987
휼 4988
놧 4989
봣 4990
쎠 4991
쏩 4992
앖 4993
첬 4994
괍 4995
괏 4996
땽 4997
렇 4998
졉 4999
